00000154
00000267
000003bf
00000779
0000084a
00000139
000003d2
0000046a
00000840
00000099
0000018b
0000023c
00000396
00000582
00000848
00000189
000002d2
000003a6
0000043f
00000588
000007ce
000008d9
000000c5
0000022a
000003c5
0000057f
00000658
000007c6
0000087c
000000d8
0000014f
0000067b
00000760
000000d1
000001a7
000003c7
0000069f
000007ca
000008ac
0000018f
0000042b
0000058d
000006ae
0000088f
0000005a
00000372
00000655
0000075a
000017be
00002353
00002546
00002e54
00003058
00003149
0000326c
0000379f
000038b8
00003cb0
00003e51
0000415e
0000435d
0000454f
0000475c
00000043
0000016f
0000026b
0000057d
00000658
00000769
0000086b
00000b57
00000d4d
00000e66
00000f59
0000104f
00001255
00001362
000021a1
00002566
00002658
00002874
00002b7e
00002c6a
00002d64
00002e6d
00002f59
00003050
0000337a
0000346e
000036ab
000038a5
000039b9
00003abe
00003db6
000043b0
000015b3
00001db8
000037b5
000041bf
000044b6
00000269
0000034e
00000456
00000855
00000a55
00001058
00001547
00001cc0
00001ebb
0000245c
00002552
0000266b
00002759
00002b45
00002d55
0000307c
0000314a
00003242
0000335b
000036ab
000038ba
000039ac
00003ebd
000001b9
000005b3
00001366
00001678
00001760
0000186e
0000196d
00001a40
00001d70
00001e5c
00002045
0000215a
00002370
000025a6
00002c90
00002dbe
00002eaf
000033c0
0000386f
00003a64
00003b5e
00003e5d
00003f70
0000414a
0000436f
000000a6
00000494
000005ad
00000baf
00002055
00002263
0000236a
000024b0
000026bf
00003855
00003b45
00003cb7
00003d53
00003e48
000042b6
00004353
00000fb1
000010af
000014b7
00001db9
000027b3
000028bf
00002ebd
00003bb8
000016bd
000019b4
000024bb
000028bf
00002fbf
00003a42
000000b3
000001b8
000002a8
000006ad
00000f5c
00001371
00001553
00001667
00001764
0000184d
00001956
00001b5d
00001e55
00001f5d
00002046
0000216f
00002351
000025b0
000026a0
000028ab
00002bbe
00002c86
00002d86
000030b7
000033b8
000034b5
0000374e
00003865
00003941
00003a6c
00003c5e
00003d44
00003e44
00003f5b
00004142
0000434b
0000455c
00004652
0000475d
000000c0
0000019d
00000393
0000069d
00000d44
000011a1
00001467
00001648
0000175b
00001954
00001a46
00001b7c
00001c6a
00002176
0000224f
000024a9
00002590
000026b9
000027b8
000028ba
000029b7
00002b92
00002cbd
00002dac
000032b7
000034b7
00003763
00003840
00003979
00003a50
00003c4a
00004051
0000417a
00004459
00004568
0000467f
00004773
000000aa
0000018e
000002ba
000004a1
000005ba
0000079e
0000098b
00000a9d
00000bb7
00000cad
00000eb9
0000124f
00001448
00001746
00001b55
00001f47
00002073
00002354
000024b0
000025a7
000027ab
000028af
00002ab7
00002bb4
00003444
0000356b
00003676
0000384f
00003974
00003c53
00003f67
0000444f
00004560
0000465c
0000025c
0000064e
00000854
00000a4f
00000d52
0000104a
00001eb2
000021c0
00002364
00002467
00002854
00002942
00002a5b
00002d62
00003160
0000345a
00004045
00004748
0000005a
00000165
00000c6a
00000f46
00001566
00001678
00001749
00001d4b
00002058
000022b5
00002a64
00002c51
00002d4f
00002f58
00003066
00003173
0000354f
00003643
0000399e
00003ead
00004054
000042a3
000045ae
00000069
00000163
0000057f
00000673
0000076c
00000862
0000097c
00000b4a
00000d68
00001070
0000116a
00001241
00001661
0000174e
00001bb6
00001fbf
000022b1
000023ba
00002461
00003076
0000314a
00003270
00003471
000036a2
00003ba4
00003eab
0000008a
000004b4
000005a7
000011a7
00001243
00001852
00001977
00001a55
00001c77
00001d65
00001e7f
00001f78
0000216e
00002369
000024bd
000025a0
000026bf
00002a9f
00002e9b
000030b3
0000318b
000035b7
0000377a
00003874
00003a79
00003d78
00003e65
0000406c
00004156
0000456d
0000467a
000000be
000001b0
00000eb3
00001051
00001452
0000154d
00001743
00001868
00001b66
00001c58
00001e59
0000204e
00002147
000025ae
0000279f
000029b3
00002daf
00002eb2
00002fa8
000031a4
00003282
00003549
00003846
00003942
00003d50
00003e5a
00004247
00004367
00004456
00000576
00000654
00001070
00001164
0000124e
00001564
0000179e
00001852
00001993
00001a92
00001ba8
0000346d
00003557
00003865
00003baf
00004f70
000080af
000081a2
0000849d
00008f5d
000090a5
000094b2
00009a73
00009b52
00009e53
00009f5b
0000ae56
0000af55
0000b159
0000b459
0000b55b
0000c158
0000c255
0000c462
0000c55b
0000c968
0000caaa
0000cea5
0000d055
0000d478
0000da91
0000dba3
0000df90
0000e091
0000e1a4
0000e4b0
0000e597
0000eb65
0000ef75
0000f6ac
0000fa59
0000fb68
0000ff4f
0000029f
00000592
00000b58
00000f67
000010a2
000011a4
00001594
0000164f
000018a0
00001d6b
00001e50
00001f74
000031a1
0000365b
000038af
00003a54
00003b5c
00003e68
00004468
00004550
00004f9d
00008168
00008564
00008eb0
00009463
00009e95
0000a452
0000a550
0000aea0
0000ba5c
0000bf59
0000c08b
0000c19b
0000c296
0000c499
0000c581
0000ca6b
0000ce4e
0000d0a3
0000d5a5
0000db72
0000de6d
0000df5d
0000e068
0000e16f
0000e464
0000eb9d
0000ee98
0000f05b
0000f169
0000f469
0000fe9e
0000ffa3