0026700154
00779003bf
001390084a
0046a003d2
0009900840
0023c0018b
0058200396
0018900848
003a6002d2
005880043f
008d9007ce
0022a000c5
0057f003c5
007c600658
000d80087c
0067b0014f
000d100760
003c7001a7
007ca0069f
0018f008ac
0058d0042b
0088f006ae
003720005a
0075a00655
02353017be
02e5402546
0314903058
0379f0326c
03cb0038b8
0415e03e51
0454f0435d
000430475c
0026b0016f
006580057d
0086b00769
00d4d00b57
00f5900e66
012550104f
021a101362
0265802566
02b7e02874
02d6402c6a
02f5902e6d
0337a03050
036ab0346e
039b9038a5
03db603abe
015b3043b0
037b501db8
044b6041bf
0034e00269
0085500456
0105800a55
01cc001547
0245c01ebb
0266b02552
02b4502759
0307c02d55
032420314a
036ab0335b
039ac038ba
001b903ebd
01366005b3
0176001678
0196d0186e
01d7001a40
0204501e5c
023700215a
02c90025a6
02eaf02dbe
0386f033c0
03b5e03a64
03f7003e5d
0436f0414a
00494000a6
00baf005ad
0226302055
024b00236a
03855026bf
03cb703b45
03e4803d53
04353042b6
010af00fb1
01db9014b7
028bf027b3
03bb802ebd
019b4016bd
028bf024bb
03a4202fbf
001b8000b3
006ad002a8
0137100f5c
0166701553
0184d01764
01b5d01956
01f5d01e55
0216f02046
025b002351
028ab026a0
02c8602bbe
030b702d86
034b5033b8
038650374e
03a6c03941
03d4403c5e
03f5b03e44
0434b04142
046520455c
000c00475d
003930019d
00d440069d
01467011a1
0175b01648
01a4601954
01c6a01b7c
0224f02176
02590024a9
027b8026b9
029b7028ba
02cbd02b92
032b702dac
03763034b7
0397903840
03c4a03a50
0417a04051
0456804459
047730467f
0018e000aa
004a1002ba
0079e005ba
00a9d0098b
00cad00bb7
0124f00eb9
0174601448
01f4701b55
0235402073
025a7024b0
028af027ab
02bb402ab7
0356b03444
0384f03676
03c5303974
0444f03f67
0465c04560
0064e0025c
00a4f00854
0104a00d52
021c001eb2
0246702364
0294202854
02d6202a5b
0345a03160
0474804045
001650005a
00f4600c6a
0167801566
01d4b01749
022b502058
02c5102a64
02f5802d4f
0317303066
036430354f
03ead0399e
042a304054
00069045ae
0057f00163
0076c00673
0097c00862
00d6800b4a
0116a01070
0166101241
01bb60174e
022b101fbf
02461023ba
0314a03076
0347103270
03ba4036a2
0008a03eab
005a7004b4
01243011a7
0197701852
01c7701a55
01e7f01d65
0216e01f78
024bd02369
026bf025a0
02e9b02a9f
0318b030b3
0377a035b7
03a7903874
03e6503d78
041560406c
0467a0456d
001b0000be
0105100eb3
0154d01452
0186801743
01c5801b66
0204e01e59
025ae02147
029b30279f
02eb202daf
031a402fa8
0354903282
0394203846
03e5a03d50
0436704247
0057604456
0107000654
0124e01164
0179e01564
0199301852
01ba801a92
035570346d
03baf03865
080af04f70
0849d081a2
090a508f5d
09a73094b2
09e5309b52
0ae5609f5b
0b1590af55
0b55b0b459
0c2550c158
0c55b0c462
0caaa0c968
0d0550cea5
0da910d478
0df900dba3
0e1a40e091
0e5970e4b0
0ef750eb65
0fa590f6ac
0ff4f0fb68
005920029f
00f6700b58
011a4010a2
0164f01594
01d6b018a0
01f7401e50
0365b031a1
03a54038af
03e6803b5c
0455004468
0816804f9d
08eb008564
09e9509463
0a5500a452
0ba5c0aea0
0c08b0bf59
0c2960c19b
0c5810c499
0ce4e0ca6b
0d5a50d0a3
0de6d0db72
0e0680df5d
0e4640e16f
0ee980eb9d
0f1690f05b
0fe9e0f469
000000ffa3